//c-styled array
unsigned char temperature_model_tflite[] = {
  0x1c, 0x00, 0x00, 0x00, 0x54, 0x46, 0x4c, 0x33, 0x14, 0x00, 0x20, 0x00,
  0x1c, 0x00, 0x18, 0x00, 0x14, 0x00, 0x10, 0x00, 0x0c, 0x00, 0x00, 0x00,
  0x08, 0x00, 0x04, 0x00, 0x14, 0x00, 0x00, 0x00, 0x1c, 0x00, 0x00, 0x00,
  0x94, 0x00, 0x00, 0x00, 0xec, 0x00, 0x00, 0x00, 0x10, 0x07, 0x00, 0x00,
  0x20, 0x07, 0x00, 0x00, 0x5c, 0x0c, 0x00, 0x00, 0x03, 0x00, 0x00, 0x00,
  0x01, 0x00, 0x00, 0x00, 0x10, 0x00, 0x00, 0x00, 0x00, 0x00, 0x0a, 0x00,
  0x10, 0x00, 0x0c, 0x00, 0x08, 0x00, 0x04, 0x00, 0x0a, 0x00, 0x00, 0x00,
  0x0c, 0x00, 0x00, 0x00, 0x1c, 0x00, 0x00, 0x00, 0x3c, 0x00, 0x00, 0x00,
  0x0f, 0x00, 0x00, 0x00, 0x73, 0x65, 0x72, 0x76, 0x69, 0x6e, 0x67, 0x5f,
  0x64, 0x65, 0x66, 0x61, 0x75, 0x6c, 0x74, 0x00, 0x01, 0x00, 0x00, 0x00,
  0x04, 0x00, 0x00, 0x00, 0x94, 0xff, 0xff, 0xff, 0x09, 0x00, 0x00, 0x00,
  0x04, 0x00, 0x00, 0x00, 0x08, 0x00, 0x00, 0x00, 0x6f, 0x75, 0x74, 0x70,
  0x75, 0x74, 0x5f, 0x30, 0x00, 0x00, 0x00, 0x00, 0x01, 0x00, 0x00, 0x00,
  0x04, 0x00, 0x00, 0x00, 0x9e, 0xf9, 0xff, 0xff, 0x04, 0x00, 0x00, 0x00,
  0x0b, 0x00, 0x00, 0x00, 0x69, 0x6e, 0x70, 0x75, 0x74, 0x5f, 0x6c, 0x61,
  0x79, 0x65, 0x72, 0x00, 0x02, 0x00, 0x00, 0x00, 0x34, 0x00, 0x00, 0x00,
  0x04, 0x00, 0x00, 0x00, 0xdc, 0xff, 0xff, 0xff, 0x0c, 0x00, 0x00, 0x00,
  0x04, 0x00, 0x00, 0x00, 0x13, 0x00, 0x00, 0x00, 0x43, 0x4f, 0x4e, 0x56,
  0x45, 0x52, 0x53, 0x49, 0x4f, 0x4e, 0x5f, 0x4d, 0x45, 0x54, 0x41, 0x44,
  0x41, 0x54, 0x41, 0x00, 0x08, 0x00, 0x0c, 0x00, 0x08, 0x00, 0x04, 0x00,
  0x08, 0x00, 0x00, 0x00, 0x0b, 0x00, 0x00, 0x00, 0x04, 0x00, 0x00, 0x00,
  0x13, 0x00, 0x00, 0x00, 0x6d, 0x69, 0x6e, 0x5f, 0x72, 0x75, 0x6e, 0x74,
  0x69, 0x6d, 0x65, 0x5f, 0x76, 0x65, 0x72, 0x73, 0x69, 0x6f, 0x6e, 0x00,
  0x0d, 0x00, 0x00, 0x00, 0x20, 0x06, 0x00, 0x00, 0x18, 0x06, 0x00, 0x00,
  0xe8, 0x05, 0x00, 0x00, 0xcc, 0x05, 0x00, 0x00, 0x9c, 0x05, 0x00, 0x00,
  0x8c, 0x03, 0x00, 0x00, 0xfc, 0x00, 0x00, 0x00, 0xac, 0x00, 0x00, 0x00,
  0xa4, 0x00, 0x00, 0x00, 0x9c, 0x00, 0x00, 0x00, 0x94, 0x00, 0x00, 0x00,
  0x74, 0x00, 0x00, 0x00, 0x04, 0x00, 0x00, 0x00, 0x4a, 0xfa, 0xff, 0xff,
  0x04, 0x00, 0x00, 0x00, 0x60, 0x00, 0x00, 0x00, 0x0c, 0x00, 0x00, 0x00,
  0x08, 0x00, 0x0e, 0x00, 0x08, 0x00, 0x04, 0x00, 0x08, 0x00, 0x00, 0x00,
  0x10, 0x00, 0x00, 0x00, 0x28, 0x00, 0x00, 0x00, 0x00, 0x00, 0x06, 0x00,
  0x08, 0x00, 0x04, 0x00, 0x06, 0x00, 0x00, 0x00, 0x04, 0x00, 0x00, 0x00,
  0x01, 0x00, 0x00, 0x00, 0xea, 0x03, 0x00, 0x00, 0x0c, 0x00, 0x18, 0x00,
  0x14, 0x00, 0x10, 0x00, 0x0c, 0x00, 0x04, 0x00, 0x0c, 0x00, 0x00, 0x00,
  0x8f, 0xf8, 0x39, 0x6e, 0x66, 0x09, 0x5d, 0x6f, 0x02, 0x00, 0x00, 0x00,
  0x02, 0x00, 0x00, 0x00, 0x04, 0x00, 0x00, 0x00, 0x06, 0x00, 0x00, 0x00,
  0x32, 0x2e, 0x32, 0x31, 0x2e, 0x30, 0x00, 0x00, 0xb6, 0xfa, 0xff, 0xff,
  0x04, 0x00, 0x00, 0x00, 0x10, 0x00, 0x00, 0x00, 0x31, 0x2e, 0x35, 0x2e,
  0x30, 0x00, 0x00, 0x00, 0x00, 0x00, 0x00, 0x00, 0x00, 0x00, 0x00, 0x00,
  0x7c, 0xf5, 0xff, 0xff, 0x80, 0xf5, 0xff, 0xff, 0x84, 0xf5, 0xff, 0xff,
  0xde, 0xfa, 0xff, 0xff, 0x04, 0x00, 0x00, 0x00, 0x40, 0x00, 0x00, 0x00,
  0x1b, 0x5e, 0x39, 0xbd, 0x8e, 0xa6, 0x5b, 0xbd, 0x2b, 0x8a, 0x2e, 0xbd,
  0xd3, 0x1c, 0x90, 0x3e, 0x7e, 0x4f, 0x3a, 0x3d, 0x73, 0x0b, 0xdb, 0x3d,
  0xaf, 0x77, 0x03, 0x3e, 0x81, 0x04, 0x37, 0x3d, 0xff, 0x9a, 0x81, 0x3b,
  0xc1, 0x91, 0xf5, 0x3d, 0xf9, 0xa6, 0x82, 0x3e, 0x9c, 0xfa, 0xab, 0xbc,
  0x7e, 0xb3, 0x11, 0xbd, 0x10, 0xe4, 0x6e, 0xbb, 0x80, 0xc2, 0x0d, 0x3c,
  0x81, 0xf4, 0xb1, 0x3d, 0x2a, 0xfb, 0xff, 0xff, 0x04, 0x00, 0x00, 0x00,
  0x80, 0x02, 0x00, 0x00, 0x42, 0x22, 0x0d, 0x3d, 0x11, 0x3f, 0x93, 0x3d,
  0x2c, 0x86, 0xc9, 0x3d, 0xd8, 0x6d, 0x04, 0xbf, 0x28, 0xe0, 0xe8, 0xbe,
  0x5f, 0x2b, 0x06, 0x3c, 0x84, 0xa9, 0x50, 0x3e, 0xf2, 0xf5, 0xe2, 0xbd,
  0xef, 0xbb, 0xe0, 0xbb, 0x11, 0xc8, 0xe9, 0x3d, 0xdf, 0x49, 0x97, 0xbe,
  0x7b, 0xf4, 0x00, 0x3f, 0xf2, 0xdf, 0xb4, 0x3e, 0x9d, 0xe8, 0xaf, 0xbe,
  0x3f, 0xe6, 0xd4, 0xbe, 0x80, 0xce, 0x31, 0xbe, 0x57, 0xbd, 0x4b, 0xbe,
  0xe1, 0x11, 0xa7, 0xbd, 0x5a, 0xdb, 0x66, 0xbe, 0xcb, 0xed, 0xc9, 0x3c,
  0x40, 0x7b, 0x4f, 0xbe, 0xcc, 0x5e, 0xe7, 0x3d, 0xd8, 0x03, 0xbf, 0x3e,
  0x1d, 0xf4, 0x6a, 0x3e, 0xa6, 0x60, 0xb6, 0xbe, 0xdb, 0xde, 0xff, 0x3e,
  0x95, 0xd5, 0x85, 0xbe, 0x3b, 0xe3, 0x0c, 0xbe, 0x30, 0xb6, 0xae, 0xbe,
  0x16, 0x9e, 0xb0, 0x3e, 0x87, 0xe5, 0xbe, 0xbe, 0x74, 0xb2, 0xad, 0x3e,
  0x3b, 0xb2, 0xdf, 0x3e, 0xf2, 0xd0, 0x04, 0xbe, 0x8d, 0xc3, 0xbd, 0x3e,
  0xf8, 0xff, 0x22, 0xbe, 0xa8, 0x83, 0xbb, 0x3e, 0x1b, 0x66, 0x84, 0xbe,
  0xf8, 0xb3, 0x38, 0xbe, 0x23, 0x71, 0xcf, 0xbe, 0xd3, 0xd4, 0x85, 0x3e,
  0xac, 0x2e, 0x23, 0x3e, 0xf8, 0xea, 0x73, 0xbe, 0xde, 0x61, 0x79, 0xbe,
  0x35, 0x10, 0x91, 0x3e, 0x2a, 0x21, 0xcc, 0xbe, 0x68, 0x72, 0xb6, 0x3e,
  0x49, 0xb9, 0x9b, 0x3d, 0x4c, 0xfb, 0x93, 0xbe, 0xee, 0xad, 0x89, 0xbe,
  0x3a, 0x5c, 0x4a, 0x3e, 0x47, 0x12, 0xe8, 0xbe, 0x31, 0x3d, 0x38, 0xbe,
  0x4d, 0xef, 0x9d, 0xbe, 0x0e, 0x6b, 0xac, 0xbe, 0x35, 0x5f, 0x15, 0x3e,
  0xad, 0xe4, 0xd4, 0xbe, 0x4d, 0x19, 0x0f, 0x3e, 0xe0, 0xf7, 0xc5, 0x3e,
  0x96, 0x2a, 0xa7, 0xbe, 0x02, 0x11, 0xb8, 0x3d, 0x3c, 0x50, 0xca, 0xbd,
  0x57, 0x72, 0x67, 0xbe, 0x3a, 0x11, 0xa2, 0x3e, 0x5c, 0x9a, 0xcb, 0xbd,
  0x21, 0x46, 0x9f, 0x3e, 0xdb, 0xbe, 0x66, 0xbd, 0x90, 0x98, 0x9f, 0xbe,
  0xa9, 0x0f, 0xde, 0x3e, 0x95, 0x96, 0x3a, 0x3e, 0x20, 0x2f, 0xbf, 0xbe,
  0x43, 0x00, 0xdc, 0x3e, 0x57, 0xa7, 0xef, 0xbe, 0xf1, 0x1d, 0x8e, 0x3e,
  0xa5, 0x25, 0x2e, 0xbc, 0x31, 0x6d, 0x44, 0x3e, 0x7c, 0xec, 0x77, 0xbe,
  0x3c, 0x74, 0xb1, 0x3e, 0xae, 0xe4, 0xe6, 0x3e, 0x17, 0x00, 0xc0, 0xbe,
  0x34, 0x4c, 0xe5, 0xbd, 0x14, 0x57, 0x0f, 0xbe, 0x3e, 0x91, 0x7b, 0x3d,
  0xb9, 0x82, 0x3c, 0x3e, 0x38, 0x39, 0xe1, 0xbe, 0x13, 0x39, 0xe4, 0xbd,
  0x3e, 0x38, 0xf6, 0xbe, 0xb9, 0xb1, 0xc3, 0x3e, 0xcf, 0xc1, 0x72, 0xbe,
  0x7c, 0x5f, 0xd2, 0xbe, 0x68, 0x14, 0xb4, 0x3e, 0xd5, 0x6c, 0x33, 0x3d,
  0xbe, 0x17, 0xef, 0x3d, 0x0c, 0x27, 0xb5, 0x3e, 0x63, 0x74, 0x72, 0x3e,
  0x5b, 0x61, 0x12, 0x3f, 0x3d, 0x04, 0x94, 0xbe, 0x3a, 0xf5, 0x1f, 0x3e,
  0x72, 0xa1, 0x3b, 0xbe, 0x4f, 0x59, 0xb6, 0x3e, 0x64, 0x40, 0x02, 0x3f,
  0x79, 0x7f, 0x96, 0x3e, 0x87, 0x47, 0xcb, 0xbd, 0xb7, 0x3d, 0x9e, 0x3e,
  0xe4, 0xdb, 0x32, 0x3e, 0xe4, 0x2b, 0xe4, 0xbc, 0x8e, 0x02, 0xfd, 0xbe,
  0x3b, 0xc9, 0x03, 0xbe, 0x84, 0x05, 0xaf, 0xbd, 0x56, 0x1d, 0x37, 0xbe,
  0xc1, 0x32, 0xa7, 0x3e, 0xfe, 0x59, 0x10, 0x3e, 0x6f, 0xc7, 0xaa, 0x3e,
  0x74, 0xcf, 0xcf, 0xbe, 0xc7, 0xef, 0xe6, 0x3e, 0x47, 0x1e, 0x5a, 0xbd,
  0x01, 0xc3, 0x7e, 0x3d, 0x19, 0x62, 0x10, 0x3f, 0x28, 0x7e, 0xb2, 0xbe,
  0x45, 0x3d, 0xf2, 0x3d, 0x24, 0x05, 0x96, 0x3e, 0x86, 0xe1, 0x91, 0x3e,
  0x1a, 0x76, 0x1a, 0x3e, 0x0f, 0x56, 0xe5, 0xbe, 0xec, 0x00, 0xc0, 0x3e,
  0x54, 0xd6, 0x43, 0xbe, 0xe2, 0xa6, 0xc6, 0xbe, 0xae, 0x9d, 0x3b, 0x3e,
  0x66, 0x4f, 0xbf, 0x3e, 0x8b, 0x4c, 0x1a, 0x3f, 0x8d, 0xd8, 0x7d, 0xbe,
  0x6e, 0xfa, 0xb6, 0xbe, 0xb3, 0x7b, 0x88, 0xbe, 0x12, 0xfb, 0xfb, 0xbe,
  0x83, 0x0d, 0xee, 0xbe, 0x3e, 0x36, 0x8c, 0x3e, 0xc8, 0x03, 0x3d, 0x3e,
  0xc7, 0xb6, 0xff, 0x3d, 0x8c, 0xba, 0xab, 0xbe, 0x26, 0x59, 0x0e, 0x3d,
  0x91, 0x2b, 0xc6, 0x3d, 0xa6, 0x20, 0x9b, 0xbe, 0xbf, 0xdb, 0x04, 0xbe,
  0xec, 0xf9, 0x9f, 0x3c, 0x99, 0x42, 0x57, 0xbe, 0xd9, 0xae, 0xac, 0xbe,
  0x61, 0xf1, 0x23, 0x3e, 0xde, 0x04, 0xed, 0xbe, 0xc9, 0xb0, 0x16, 0xbf,
  0x9e, 0x00, 0xfe, 0xbe, 0x2a, 0x81, 0xe2, 0x3e, 0x52, 0x36, 0xe0, 0x3e,
  0x1b, 0x2e, 0xeb, 0xbe, 0xfe, 0x98, 0x83, 0x3e, 0x48, 0x02, 0x01, 0xbe,
  0xed, 0xcf, 0x81, 0xbe, 0x02, 0x2b, 0x9a, 0x3e, 0xde, 0x8a, 0xb2, 0x3e,
  0x6d, 0xf6, 0xce, 0xbd, 0xef, 0xcf, 0x15, 0x3e, 0xb6, 0xfd, 0xff, 0xff,
  0x04, 0x00, 0x00, 0x00, 0x00, 0x02, 0x00, 0x00, 0x59, 0x2c, 0x66, 0x3e,
  0x15, 0x8b, 0x1b, 0x3e, 0xda, 0xd7, 0x6c, 0xbc, 0x50, 0x65, 0x35, 0x3e,
  0x8d, 0x2c, 0xdf, 0xbd, 0xfd, 0x45, 0x82, 0xbe, 0x10, 0x32, 0x5b, 0x3e,
  0x2b, 0x03, 0xd7, 0xbd, 0x0d, 0x36, 0x93, 0xbe, 0xb5, 0xe0, 0x3b, 0x3e,
  0xe3, 0x0a, 0x0f, 0x3f, 0xd7, 0xf7, 0x9b, 0xbe, 0x7d, 0x62, 0xcc, 0xbe,
  0xfe, 0xbb, 0x78, 0xbc, 0xdf, 0x2a, 0xc3, 0x3e, 0x41, 0x80, 0xa7, 0xbe,
  0x94, 0x0d, 0x4a, 0xbe, 0xab, 0x19, 0xd8, 0x3e, 0xf9, 0xb4, 0x9d, 0xbd,
  0xf3, 0x45, 0x51, 0xbe, 0xe2, 0xb8, 0x0e, 0x3e, 0xd6, 0xe3, 0xcb, 0xbe,
  0xca, 0x70, 0x2c, 0x3e, 0x8b, 0xd3, 0x98, 0xbe, 0xa0, 0x96, 0xcb, 0x3e,
  0x15, 0x63, 0xaa, 0x3d, 0xd9, 0x7f, 0xe9, 0x3e, 0x07, 0x7a, 0x2b, 0xbe,
  0xc7, 0xb2, 0x13, 0xbe, 0x48, 0x21, 0x5a, 0xbe, 0xce, 0xb7, 0x15, 0x3e,
  0xb0, 0xb8, 0xf9, 0xbd, 0x1b, 0xfd, 0x33, 0xbe, 0xdb, 0x69, 0xd9, 0xbd,
  0xc0, 0xbc, 0xa9, 0x3e, 0x88, 0xad, 0xa6, 0x3d, 0xe6, 0x80, 0x1e, 0xbf,
  0x70, 0x74, 0xe2, 0x3e, 0x63, 0xdd, 0xc7, 0x3e, 0xeb, 0xef, 0xd3, 0x3d,
  0xab, 0x57, 0xe6, 0xbe, 0xa5, 0x12, 0x92, 0x3e, 0xaf, 0x20, 0x68, 0xbe,
  0x2f, 0x08, 0xb1, 0x3e, 0xb7, 0xb3, 0x25, 0x3e, 0x08, 0x57, 0xc3, 0xbe,
  0xad, 0x95, 0x95, 0x3e, 0xb3, 0x8d, 0x56, 0x3e, 0x05, 0xcf, 0x06, 0x3e,
  0x40, 0x56, 0x85, 0x3e, 0xf5, 0x66, 0x20, 0x3e, 0x8c, 0x34, 0xa4, 0x3e,
  0x2e, 0xbc, 0x8e, 0xbe, 0xd0, 0xc7, 0xc4, 0x3e, 0xfa, 0x72, 0x1a, 0xbf,
  0x0a, 0xc2, 0x35, 0x3d, 0x01, 0x07, 0xff, 0xbe, 0x9b, 0xde, 0x25, 0xbf,
  0x99, 0x8e, 0xaa, 0x3e, 0xf1, 0x91, 0x13, 0xbf, 0xbd, 0xdc, 0x10, 0xbf,
  0xb3, 0x2f, 0xcc, 0xbe, 0x16, 0x56, 0x70, 0xbb, 0xdd, 0x00, 0x1c, 0x3e,
  0x7f, 0x56, 0x9e, 0xbe, 0xa6, 0x9d, 0xc3, 0x3d, 0xbe, 0x76, 0x4f, 0xbc,
  0x41, 0x1a, 0xcb, 0x3e, 0xc3, 0xfd, 0x66, 0xbe, 0x27, 0x7d, 0xdb, 0x3e,
  0x5f, 0x05, 0x7c, 0xbe, 0xbd, 0x21, 0xe9, 0x3e, 0xa1, 0xbb, 0xe3, 0x3d,
  0xb6, 0x8f, 0x09, 0x3d, 0xf9, 0xc5, 0xec, 0x3e, 0x0f, 0xb5, 0x9a, 0xbe,
  0xc7, 0xfc, 0xac, 0xbe, 0xac, 0x01, 0x5e, 0x3d, 0x1c, 0x65, 0xf3, 0xbd,
  0x0b, 0x33, 0x0e, 0x3e, 0xcf, 0xa7, 0x06, 0xbe, 0x55, 0x86, 0x37, 0x3e,
  0x1b, 0x6f, 0x1b, 0x3e, 0x2e, 0x0f, 0x09, 0xbf, 0xfc, 0xdb, 0x17, 0xbe,
  0x71, 0x48, 0xcb, 0xbd, 0xf4, 0x8a, 0x6a, 0x3e, 0xd2, 0x4f, 0x35, 0x3e,
  0x23, 0x1c, 0xce, 0x3e, 0xf8, 0x2a, 0xac, 0xbb, 0xad, 0xc6, 0xf3, 0xbd,
  0xd8, 0x7c, 0xe8, 0x3d, 0x69, 0xe6, 0xd6, 0x3d, 0xff, 0xa6, 0x32, 0xbe,
  0x39, 0xd9, 0xf8, 0x3e, 0xe4, 0xa8, 0xe3, 0xbd, 0x51, 0x9f, 0xa9, 0x3c,
  0xe0, 0x17, 0xbb, 0xbe, 0x31, 0xd0, 0xf8, 0xbe, 0xf3, 0x9b, 0x8c, 0x3e,
  0x24, 0xb2, 0x27, 0x3f, 0x62, 0x87, 0x00, 0xbf, 0x37, 0xd4, 0x84, 0xbe,
  0x7e, 0xce, 0x1a, 0x3f, 0x46, 0xac, 0xe4, 0xbe, 0x15, 0xbc, 0x9b, 0xbd,
  0xee, 0x69, 0x48, 0xbe, 0x1a, 0x25, 0xef, 0xbe, 0xa6, 0x1e, 0x45, 0x3e,
  0x0c, 0x00, 0x9f, 0xbe, 0x4b, 0xe5, 0x74, 0x3c, 0xdf, 0x2f, 0x30, 0x3e,
  0xef, 0xf2, 0x91, 0x3d, 0xcf, 0x86, 0x4e, 0x3e, 0xc6, 0xf5, 0x03, 0x3f,
  0x9a, 0x36, 0x7b, 0x3e, 0x64, 0x36, 0xcb, 0x3e, 0x15, 0x4d, 0x68, 0x3e,
  0x22, 0x58, 0x09, 0xbe, 0x21, 0xa4, 0x10, 0xbe, 0xf3, 0x19, 0xac, 0x3e,
  0x59, 0x07, 0xbb, 0xbd, 0x3a, 0x15, 0xc3, 0x3e, 0x10, 0x45, 0x81, 0x3e,
  0x7f, 0xec, 0xae, 0x3e, 0xfb, 0x23, 0xa5, 0xbd, 0x73, 0x58, 0x5c, 0x3e,
  0xd9, 0x0e, 0x60, 0x3e, 0xc2, 0xff, 0xff, 0xff, 0x04, 0x00, 0x00, 0x00,
  0x20, 0x00, 0x00, 0x00, 0xde, 0x5e, 0x0d, 0xbf, 0x59, 0x8c, 0xbd, 0x3e,
  0x5e, 0xcc, 0x46, 0x3f, 0x34, 0x3f, 0xec, 0x3e, 0x08, 0x79, 0x37, 0xbe,
  0x4c, 0x06, 0x87, 0xbe, 0x5d, 0x90, 0xe5, 0x3e, 0xca, 0x31, 0xa7, 0xbe,
  0xee, 0xff, 0xff, 0xff, 0x04, 0x00, 0x00, 0x00, 0x04, 0x00, 0x00, 0x00,
  0xb3, 0xe4, 0x72, 0x3d, 0x00, 0x00, 0x06, 0x00, 0x08, 0x00, 0x04, 0x00,
  0x06, 0x00, 0x00, 0x00, 0x04, 0x00, 0x00, 0x00, 0x20, 0x00, 0x00, 0x00,
  0x76, 0x8f, 0x4c, 0x3d, 0x17, 0xe3, 0x1e, 0xbe, 0x80, 0x06, 0x78, 0x3d,
  0x37, 0xe9, 0xeb, 0xbb, 0x76, 0xb6, 0x07, 0x3d, 0x7e, 0xfe, 0xa6, 0xbd,
  0xcb, 0x9b, 0x32, 0x3e, 0xae, 0x1f, 0x82, 0xbd, 0xdc, 0xfa, 0xff, 0xff,
  0xe0, 0xfa, 0xff, 0xff, 0x0f, 0x00, 0x00, 0x00, 0x4d, 0x4c, 0x49, 0x52,
  0x20, 0x43, 0x6f, 0x6e, 0x76, 0x65, 0x72, 0x74, 0x65, 0x64, 0x2e, 0x00,
  0x01, 0x00, 0x00, 0x00, 0x14, 0x00, 0x00, 0x00, 0x00, 0x00, 0x0e, 0x00,
  0x18, 0x00, 0x14, 0x00, 0x10, 0x00, 0x0c, 0x00, 0x08, 0x00, 0x04, 0x00,
  0x0e, 0x00, 0x00, 0x00, 0x14, 0x00, 0x00, 0x00, 0x1c, 0x00, 0x00, 0x00,
  0xe8, 0x00, 0x00, 0x00, 0xec, 0x00, 0x00, 0x00, 0xf0, 0x00, 0x00, 0x00,
  0x04, 0x00, 0x00, 0x00, 0x6d, 0x61, 0x69, 0x6e, 0x00, 0x00, 0x00, 0x00,
  0x03, 0x00, 0x00, 0x00, 0x90, 0x00, 0x00, 0x00, 0x48, 0x00, 0x00, 0x00,
  0x04, 0x00, 0x00, 0x00, 0xce, 0xff, 0xff, 0xff, 0x10, 0x00, 0x00, 0x00,
  0x00, 0x00, 0x00, 0x08, 0x0c, 0x00, 0x00, 0x00, 0x10, 0x00, 0x00, 0x00,
  0x58, 0xfb, 0xff, 0xff, 0x01, 0x00, 0x00, 0x00, 0x09, 0x00, 0x00, 0x00,
  0x03, 0x00, 0x00, 0x00, 0x08, 0x00, 0x00, 0x00, 0x03, 0x00, 0x00, 0x00,
  0x02, 0x00, 0x00, 0x00, 0x00, 0x00, 0x0e, 0x00, 0x14, 0x00, 0x00, 0x00,
  0x10, 0x00, 0x0c, 0x00, 0x0b, 0x00, 0x04, 0x00, 0x0e, 0x00, 0x00, 0x00,
  0x10, 0x00, 0x00, 0x00, 0x00, 0x00, 0x00, 0x08, 0x10, 0x00, 0x00, 0x00,
  0x14, 0x00, 0x00, 0x00, 0xba, 0xff, 0xff, 0xff, 0x00, 0x00, 0x00, 0x01,
  0x01, 0x00, 0x00, 0x00, 0x08, 0x00, 0x00, 0x00, 0x03, 0x00, 0x00, 0x00,
  0x07, 0x00, 0x00, 0x00, 0x04, 0x00, 0x00, 0x00, 0x01, 0x00, 0x00, 0x00,
  0x00, 0x00, 0x0e, 0x00, 0x16, 0x00, 0x00, 0x00, 0x10, 0x00, 0x0c, 0x00,
  0x0b, 0x00, 0x04, 0x00, 0x0e, 0x00, 0x00, 0x00, 0x18, 0x00, 0x00, 0x00,
  0x00, 0x00, 0x00, 0x08, 0x18, 0x00, 0x00, 0x00, 0x1c, 0x00, 0x00, 0x00,
  0x00, 0x00, 0x06, 0x00, 0x08, 0x00, 0x07, 0x00, 0x06, 0x00, 0x00, 0x00,
  0x00, 0x00, 0x00, 0x01, 0x01, 0x00, 0x00, 0x00, 0x07, 0x00, 0x00, 0x00,
  0x03, 0x00, 0x00, 0x00, 0x00, 0x00, 0x00, 0x00, 0x05, 0x00, 0x00, 0x00,
  0x06, 0x00, 0x00, 0x00, 0x01, 0x00, 0x00, 0x00, 0x09, 0x00, 0x00, 0x00,
  0x01, 0x00, 0x00, 0x00, 0x00, 0x00, 0x00, 0x00, 0x0a, 0x00, 0x00, 0x00,
  0xc0, 0x03, 0x00, 0x00, 0x40, 0x03, 0x00, 0x00, 0xe0, 0x02, 0x00, 0x00,
  0x90, 0x02, 0x00, 0x00, 0x40, 0x02, 0x00, 0x00, 0xf4, 0x01, 0x00, 0x00,
  0x90, 0x01, 0x00, 0x00, 0xfc, 0x00, 0x00, 0x00, 0x60, 0x00, 0x00, 0x00,
  0x04, 0x00, 0x00, 0x00, 0x7e, 0xfc, 0xff, 0xff, 0x00, 0x00, 0x00, 0x01,
  0x14, 0x00, 0x00, 0x00, 0x1c, 0x00, 0x00, 0x00, 0x1c, 0x00, 0x00, 0x00,
  0x0a, 0x00, 0x00, 0x00, 0x34, 0x00, 0x00, 0x00, 0x02, 0x00, 0x00, 0x00,
  0xff, 0xff, 0xff, 0xff, 0x01, 0x00, 0x00, 0x00, 0x68, 0xfc, 0xff, 0xff,
  0x1b, 0x00, 0x00, 0x00, 0x53, 0x74, 0x61, 0x74, 0x65, 0x66, 0x75, 0x6c,
  0x50, 0x61, 0x72, 0x74, 0x69, 0x74, 0x69, 0x6f, 0x6e, 0x65, 0x64, 0x43,
  0x61, 0x6c, 0x6c, 0x5f, 0x31, 0x3a, 0x30, 0x00, 0x02, 0x00, 0x00, 0x00,
  0x01, 0x00, 0x00, 0x00, 0x01, 0x00, 0x00, 0x00, 0xd6, 0xfc, 0xff, 0xff,
  0x00, 0x00, 0x00, 0x01, 0x14, 0x00, 0x00, 0x00, 0x1c, 0x00, 0x00, 0x00,
  0x1c, 0x00, 0x00, 0x00, 0x09, 0x00, 0x00, 0x00, 0x74, 0x00, 0x00, 0x00,
  0x02, 0x00, 0x00, 0x00, 0xff, 0xff, 0xff, 0xff, 0x08, 0x00, 0x00, 0x00,
  0xc0, 0xfc, 0xff, 0xff, 0x58, 0x00, 0x00, 0x00, 0x73, 0x65, 0x71, 0x75,
  0x65, 0x6e, 0x74, 0x69, 0x61, 0x6c, 0x5f, 0x31, 0x2f, 0x64, 0x65, 0x6e,
  0x73, 0x65, 0x5f, 0x31, 0x5f, 0x32, 0x2f, 0x4d, 0x61, 0x74, 0x4d, 0x75,
  0x6c, 0x3b, 0x73, 0x65, 0x71, 0x75, 0x65, 0x6e, 0x74, 0x69, 0x61, 0x6c,
  0x5f, 0x31, 0x2f, 0x64, 0x65, 0x6e, 0x73, 0x65, 0x5f, 0x31, 0x5f, 0x32,
  0x2f, 0x52, 0x65, 0x6c, 0x75, 0x3b, 0x73, 0x65, 0x71, 0x75, 0x65, 0x6e,
  0x74, 0x69, 0x61, 0x6c, 0x5f, 0x31, 0x2f, 0x64, 0x65, 0x6e, 0x73, 0x65,
  0x5f, 0x31, 0x5f, 0x32, 0x2f, 0x42, 0x69, 0x61, 0x73, 0x41, 0x64, 0x64,
  0x00, 0x00, 0x00, 0x00, 0x02, 0x00, 0x00, 0x00, 0x01, 0x00, 0x00, 0x00,
  0x08, 0x00, 0x00, 0x00, 0x6e, 0xfd, 0xff, 0xff, 0x00, 0x00, 0x00, 0x01,
  0x14, 0x00, 0x00, 0x00, 0x1c, 0x00, 0x00, 0x00, 0x1c, 0x00, 0x00, 0x00,
  0x08, 0x00, 0x00, 0x00, 0x6c, 0x00, 0x00, 0x00, 0x02, 0x00, 0x00, 0x00,
  0xff, 0xff, 0xff, 0xff, 0x10, 0x00, 0x00, 0x00, 0x58, 0xfd, 0xff, 0xff,
  0x52, 0x00, 0x00, 0x00, 0x73, 0x65, 0x71, 0x75, 0x65, 0x6e, 0x74, 0x69,
  0x61, 0x6c, 0x5f, 0x31, 0x2f, 0x64, 0x65, 0x6e, 0x73, 0x65, 0x5f, 0x31,
  0x2f, 0x4d, 0x61, 0x74, 0x4d, 0x75, 0x6c, 0x3b, 0x73, 0x65, 0x71, 0x75,
  0x65, 0x6e, 0x74, 0x69, 0x61, 0x6c, 0x5f, 0x31, 0x2f, 0x64, 0x65, 0x6e,
  0x73, 0x65, 0x5f, 0x31, 0x2f, 0x52, 0x65, 0x6c, 0x75, 0x3b, 0x73, 0x65,
  0x71, 0x75, 0x65, 0x6e, 0x74, 0x69, 0x61, 0x6c, 0x5f, 0x31, 0x2f, 0x64,
  0x65, 0x6e, 0x73, 0x65, 0x5f, 0x31, 0x2f, 0x42, 0x69, 0x61, 0x73, 0x41,
  0x64, 0x64, 0x00, 0x00, 0x02, 0x00, 0x00, 0x00, 0x01, 0x00, 0x00, 0x00,
  0x10, 0x00, 0x00, 0x00, 0x7a, 0xfe, 0xff, 0xff, 0x00, 0x00, 0x00, 0x01,
  0x10, 0x00, 0x00, 0x00, 0x10, 0x00, 0x00, 0x00, 0x07, 0x00, 0x00, 0x00,
  0x44, 0x00, 0x00, 0x00, 0xd8, 0xfd, 0xff, 0xff, 0x36, 0x00, 0x00, 0x00,
  0x73, 0x65, 0x71, 0x75, 0x65, 0x6e, 0x74, 0x69, 0x61, 0x6c, 0x5f, 0x31,
  0x2f, 0x64, 0x65, 0x6e, 0x73, 0x65, 0x5f, 0x31, 0x2f, 0x52, 0x65, 0x6c,
  0x75, 0x3b, 0x73, 0x65, 0x71, 0x75, 0x65, 0x6e, 0x74, 0x69, 0x61, 0x6c,
  0x5f, 0x31, 0x2f, 0x64, 0x65, 0x6e, 0x73, 0x65, 0x5f, 0x31, 0x2f, 0x42,
  0x69, 0x61, 0x73, 0x41, 0x64, 0x64, 0x00, 0x00, 0x01, 0x00, 0x00, 0x00,
  0x10, 0x00, 0x00, 0x00, 0xda, 0xfe, 0xff, 0xff, 0x00, 0x00, 0x00, 0x01,
  0x10, 0x00, 0x00, 0x00, 0x10, 0x00, 0x00, 0x00, 0x06, 0x00, 0x00, 0x00,
  0x28, 0x00, 0x00, 0x00, 0x38, 0xfe, 0xff, 0xff, 0x1b, 0x00, 0x00, 0x00,
  0x73, 0x65, 0x71, 0x75, 0x65, 0x6e, 0x74, 0x69, 0x61, 0x6c, 0x5f, 0x31,
  0x2f, 0x64, 0x65, 0x6e, 0x73, 0x65, 0x5f, 0x31, 0x2f, 0x4d, 0x61, 0x74,
  0x4d, 0x75, 0x6c, 0x00, 0x02, 0x00, 0x00, 0x00, 0x10, 0x00, 0x00, 0x00,
  0x0a, 0x00, 0x00, 0x00, 0x22, 0xff, 0xff, 0xff, 0x00, 0x00, 0x00, 0x01,
  0x10, 0x00, 0x00, 0x00, 0x10, 0x00, 0x00, 0x00, 0x05, 0x00, 0x00, 0x00,
  0x2c, 0x00, 0x00, 0x00, 0x80, 0xfe, 0xff, 0xff, 0x1d, 0x00, 0x00, 0x00,
  0x73, 0x65, 0x71, 0x75, 0x65, 0x6e, 0x74, 0x69, 0x61, 0x6c, 0x5f, 0x31,
  0x2f, 0x64, 0x65, 0x6e, 0x73, 0x65, 0x5f, 0x31, 0x5f, 0x32, 0x2f, 0x4d,
  0x61, 0x74, 0x4d, 0x75, 0x6c, 0x00, 0x00, 0x00, 0x02, 0x00, 0x00, 0x00,
  0x08, 0x00, 0x00, 0x00, 0x10, 0x00, 0x00, 0x00, 0x6e, 0xff, 0xff, 0xff,
  0x00, 0x00, 0x00, 0x01, 0x10, 0x00, 0x00, 0x00, 0x10, 0x00, 0x00, 0x00,
  0x04, 0x00, 0x00, 0x00, 0x2c, 0x00, 0x00, 0x00, 0xcc, 0xfe, 0xff, 0xff,
  0x1d, 0x00, 0x00, 0x00, 0x73, 0x65, 0x71, 0x75, 0x65, 0x6e, 0x74, 0x69,
  0x61, 0x6c, 0x5f, 0x31, 0x2f, 0x64, 0x65, 0x6e, 0x73, 0x65, 0x5f, 0x32,
  0x5f, 0x31, 0x2f, 0x4d, 0x61, 0x74, 0x4d, 0x75, 0x6c, 0x00, 0x00, 0x00,
  0x02, 0x00, 0x00, 0x00, 0x01, 0x00, 0x00, 0x00, 0x08, 0x00, 0x00, 0x00,
  0xba, 0xff, 0xff, 0xff, 0x00, 0x00, 0x00, 0x01, 0x10, 0x00, 0x00, 0x00,
  0x10, 0x00, 0x00, 0x00, 0x03, 0x00, 0x00, 0x00, 0x28, 0x00, 0x00, 0x00,
  0x18, 0xff, 0xff, 0xff, 0x1a, 0x00, 0x00, 0x00, 0x73, 0x65, 0x71, 0x75,
  0x65, 0x6e, 0x74, 0x69, 0x61, 0x6c, 0x5f, 0x31, 0x2f, 0x64, 0x65, 0x6e,
  0x73, 0x65, 0x5f, 0x32, 0x5f, 0x31, 0x2f, 0x41, 0x64, 0x64, 0x00, 0x00,
  0x01, 0x00, 0x00, 0x00, 0x01, 0x00, 0x00, 0x00, 0x00, 0x00, 0x16, 0x00,
  0x18, 0x00, 0x14, 0x00, 0x00, 0x00, 0x10, 0x00, 0x0c, 0x00, 0x08, 0x00,
  0x00, 0x00, 0x00, 0x00, 0x00, 0x00, 0x07, 0x00, 0x16, 0x00, 0x00, 0x00,
  0x00, 0x00, 0x00, 0x01, 0x10, 0x00, 0x00, 0x00, 0x10, 0x00, 0x00, 0x00,
  0x02, 0x00, 0x00, 0x00, 0x48, 0x00, 0x00, 0x00, 0x74, 0xff, 0xff, 0xff,
  0x3a, 0x00, 0x00, 0x00, 0x73, 0x65, 0x71, 0x75, 0x65, 0x6e, 0x74, 0x69,
  0x61, 0x6c, 0x5f, 0x31, 0x2f, 0x64, 0x65, 0x6e, 0x73, 0x65, 0x5f, 0x31,
  0x5f, 0x32, 0x2f, 0x52, 0x65, 0x6c, 0x75, 0x3b, 0x73, 0x65, 0x71, 0x75,
  0x65, 0x6e, 0x74, 0x69, 0x61, 0x6c, 0x5f, 0x31, 0x2f, 0x64, 0x65, 0x6e,
  0x73, 0x65, 0x5f, 0x31, 0x5f, 0x32, 0x2f, 0x42, 0x69, 0x61, 0x73, 0x41,
  0x64, 0x64, 0x00, 0x00, 0x01, 0x00, 0x00, 0x00, 0x08, 0x00, 0x00, 0x00,
  0x00, 0x00, 0x16, 0x00, 0x1c, 0x00, 0x18, 0x00, 0x00, 0x00, 0x14, 0x00,
  0x10, 0x00, 0x0c, 0x00, 0x00, 0x00, 0x00, 0x00, 0x08, 0x00, 0x07, 0x00,
  0x16, 0x00, 0x00, 0x00, 0x00, 0x00, 0x00, 0x01, 0x14, 0x00, 0x00, 0x00,
  0x20, 0x00, 0x00, 0x00, 0x20, 0x00, 0x00, 0x00, 0x01, 0x00, 0x00, 0x00,
  0x3c, 0x00, 0x00, 0x00, 0x02, 0x00, 0x00, 0x00, 0xff, 0xff, 0xff, 0xff,
  0x0a, 0x00, 0x00, 0x00, 0x04, 0x00, 0x04, 0x00, 0x04, 0x00, 0x00, 0x00,
  0x1d, 0x00, 0x00, 0x00, 0x73, 0x65, 0x72, 0x76, 0x69, 0x6e, 0x67, 0x5f,
  0x64, 0x65, 0x66, 0x61, 0x75, 0x6c, 0x74, 0x5f, 0x69, 0x6e, 0x70, 0x75,
  0x74, 0x5f, 0x6c, 0x61, 0x79, 0x65, 0x72, 0x3a, 0x30, 0x00, 0x00, 0x00,
  0x02, 0x00, 0x00, 0x00, 0x01, 0x00, 0x00, 0x00, 0x0a, 0x00, 0x00, 0x00,
  0x01, 0x00, 0x00, 0x00, 0x10, 0x00, 0x00, 0x00, 0x0c, 0x00, 0x0c, 0x00,
  0x0b, 0x00, 0x00, 0x00, 0x00, 0x00, 0x04, 0x00, 0x0c, 0x00, 0x00, 0x00,
  0x09, 0x00, 0x00, 0x00, 0x00, 0x00, 0x00, 0x09
};
unsigned int temperature_model_tflite_len = 3248;
